/*
	info_model_efficiency.h

	author: Alessio Ribeca <a.ribeca@unitus.it>
	owner: DIBAF - University of Tuscia, Viterbo, Italy

	scientific contact: Dario Papale <darpap@unitus.it>

	please note this is an automatically generated file
	created with txt2h on 201602110949
*/

const unsigned char info_model_efficiency[] = {

	0x0D, 0x0A, 0x4D, 0x4F, 0x44, 0x45, 0x4C, 0x20, 
	0x45, 0x46, 0x46, 0x49, 0x43, 0x49, 0x45, 0x4E, 
	0x43, 0x59, 0x20, 0x53, 0x45, 0x4C, 0x45, 0x43, 
	0x54, 0x49, 0x4F, 0x4E, 0x20, 0x46, 0x4F, 0x52, 
	0x20, 0x4E, 0x45, 0x45, 0x5F, 0x72, 0x65, 0x66, 
	0x3A, 0x0D, 0x0A, 0x0D, 0x0A, 0x54, 0x68, 0x65, 
	0x20, 0x72, 0x65, 0x66, 0x65, 0x72, 0x65, 0x6E, 
	0x63, 0x65, 0x20, 0x4E, 0x45, 0x45, 0x20, 0x68, 
	0x61, 0x73, 0x20, 0x62, 0x65, 0x65, 0x6E, 0x20, 
	0x73, 0x65, 0x6C, 0x65, 0x63, 0x74, 0x65, 0x64, 
	0x20, 0x6F, 0x6E, 0x20, 0x74, 0x68, 0x65, 0x20, 
	0x62, 0x61, 0x73, 0x69, 0x73, 0x20, 0x6F, 0x66, 
	0x20, 0x74, 0x68, 0x65, 0x20, 0x4D, 0x6F, 0x64, 
	0x65, 0x6C, 0x20, 0x45, 0x66, 0x66, 0x69, 0x63, 
	0x69, 0x65, 0x6E, 0x63, 0x79, 0x2E, 0x20, 0x53, 
	0x74, 0x61, 0x72, 0x74, 0x69, 0x6E, 0x67, 0x20, 
	0x66, 0x72, 0x6F, 0x6D, 0x20, 0x74, 0x68, 0x65, 
	0x20, 0x34, 0x30, 0x20, 0x64, 0x69, 0x66, 0x66, 
	0x65, 0x72, 0x65, 0x6E, 0x74, 0x20, 0x4E, 0x45, 
	0x45, 0x20, 0x65, 0x73, 0x74, 0x69, 0x6D, 0x61, 
	0x74, 0x69, 0x6F, 0x6E, 0x73, 0x20, 0x28, 0x6F, 
	0x62, 0x74, 0x61, 0x69, 0x6E, 0x65, 0x64, 0x20, 
	0x66, 0x69, 0x6C, 0x74, 0x65, 0x72, 0x69, 0x6E, 
	0x67, 0x20, 0x74, 0x68, 0x65, 0x20, 0x64, 0x61, 
	0x74, 0x61, 0x20, 0x77, 0x69, 0x74, 0x68, 0x20, 
	0x34, 0x30, 0x20, 0x64, 0x69, 0x66, 0x66, 0x65, 
	0x72, 0x65, 0x6E, 0x74, 0x20, 0x75, 0x73, 0x74, 
	0x61, 0x72, 0x20, 0x74, 0x68, 0x72, 0x65, 0x73, 
	0x68, 0x6F, 0x6C, 0x64, 0x73, 0x29, 0x20, 0x69, 
	0x74, 0x20, 0x68, 0x61, 0x73, 0x20, 0x62, 0x65, 
	0x65, 0x6E, 0x20, 0x63, 0x61, 0x6C, 0x63, 0x75, 
	0x6C, 0x61, 0x74, 0x65, 0x64, 0x20, 0x74, 0x68, 
	0x65, 0x20, 0x4D, 0x6F, 0x64, 0x65, 0x6C, 0x20, 
	0x45, 0x66, 0x66, 0x69, 0x63, 0x69, 0x65, 0x6E, 
	0x63, 0x79, 0x20, 0x62, 0x65, 0x74, 0x77, 0x65, 
	0x65, 0x6E, 0x20, 0x65, 0x61, 0x63, 0x68, 0x20, 
	0x76, 0x65, 0x72, 0x73, 0x69, 0x6F, 0x6E, 0x20, 
	0x61, 0x6E, 0x64, 0x20, 0x74, 0x68, 0x65, 0x20, 
	0x6F, 0x74, 0x68, 0x65, 0x72, 0x73, 0x20, 0x33, 
	0x39, 0x2E, 0x20, 0x54, 0x68, 0x65, 0x20, 0x72, 
	0x65, 0x66, 0x65, 0x72, 0x65, 0x6E, 0x63, 0x65, 
	0x20, 0x4E, 0x45, 0x45, 0x20, 0x68, 0x61, 0x73, 
	0x20, 0x62, 0x65, 0x65, 0x6E, 0x20, 0x73, 0x65, 
	0x6C, 0x65, 0x63, 0x74, 0x65, 0x64, 0x20, 0x61, 
	0x73, 0x20, 0x74, 0x68, 0x65, 0x20, 0x6F, 0x6E, 
	0x65, 0x20, 0x77, 0x69, 0x74, 0x68, 0x20, 0x68, 
	0x69, 0x67, 0x68, 0x65, 0x72, 0x20, 0x4D, 0x6F, 
	0x64, 0x65, 0x6C, 0x20, 0x45, 0x66, 0x66, 0x69, 
	0x63, 0x69, 0x65, 0x6E, 0x63, 0x79, 0x20, 0x73, 
	0x75, 0x6D, 0x20, 0x28, 0x73, 0x6F, 0x20, 0x74, 
	0x68, 0x65, 0x20, 0x6D, 0x6F, 0x73, 0x74, 0x20, 
	0x73, 0x69, 0x6D, 0x69, 0x6C, 0x61, 0x72, 0x20, 
	0x74, 0x6F, 0x20, 0x74, 0x68, 0x65, 0x20, 0x6F, 
	0x74, 0x68, 0x65, 0x72, 0x73, 0x20, 0x33, 0x39, 
	0x29, 0x2E, 0x0D, 0x0A, 0x49, 0x6E, 0x20, 0x74, 
	0x68, 0x69, 0x73, 0x20, 0x64, 0x61, 0x74, 0x61, 
	0x73, 0x65, 0x74, 0x20, 0x68, 0x61, 0x76, 0x65, 
	0x20, 0x62, 0x65, 0x65, 0x6E, 0x20, 0x73, 0x65, 
	0x6C, 0x65, 0x63, 0x74, 0x65, 0x64, 0x20, 0x61, 
	0x73, 0x20, 0x72, 0x65, 0x66, 0x65, 0x72, 0x65, 
	0x6E, 0x63, 0x65, 0x3A, 0x0D, 0x0A, 0x0D, 0x0A, 
	0x00
};
